0000
0000
FFFF
FFFE
FFC0
0000
0000
FFFF
0002
FFDE
0000
0000
FFFE
0001
FFBA
0000
0000
FFFF
0002
FFE1
0000
0000
FFFE
FFFE
FFF4
FFFF
0000
0002
0000
FEF6
0001
0000
0001
0000
00BC
0000
0000
FFFE
FFFE
FFF7
FFFF
0000
0001
FFFF
FF38
0000
0000
0001
FFFF
FF55
0001
FFFF
0001
0000
0090
0000
0000
FFFE
0002
FFEB