FFDF
002D
002B
0037
FFFE
FFE3
005A
FFFE
FFC6
FFDD
005B
004F
0048
FFDF
0003
FFE1
0024
006F
FFDE
0018
0072
0054
FFF4
FFD2
FFED
FFF3
FFF2
FFEC
FFD0
0071
0026
FFCC
004D
0057
0037
FFD7
0044
FFD9
FFF6
FFE7
0046
FFC9
0055
004D
0003
FFF7
005B
FFF2
FFD7
004A
004E
0050
FFE5
0047
FFEF
FFE0
0004
0019
FFF7
005C
005A
001D
0056
0031
0064
FFA2
FFF9
006D
FFCE
FFCF
FFF8
0059