116
18
85
-13
56
-11
-152
13
127
-8
31
-47
-26
-104
25
-99
105
25
13
-62
-105
-5
171
-125
117
-27
-99
-58
14
69
-180
99
114
-65
128
-32
119
-111
25
-31
-108
-25
75
12
44
9
138
-98
138
5
-6
17
3
127
-172
122
19
-11
-44
14
-22
34
9
-45
54
19
16
25
-5
-58
58
53
79
-52
-62
-31
-128
-61
49
12